#ifndef _simaple_h_
#define _simaple_h_
#include "xxwsL.h"

#define bmp_name_size 12
char  bmp_data[28+ bmp_name_size]="D:\\work\\ML\\ML_base\\simaple\\";
char *bmp_name=(bmp_data+27);

//network test date
uint8_t voidmodel[72];

uint8_t model0_0[72] = {
	0x00,0x00,0x00,0x00,0x00,0x00,0x00,0xF0,0x00,0x00,0x98,0x03,0x00,0x0C,0x02,0x00,0x06,0x02,0x00,0x01,0x02,0x80,0x01,0x02,0x80,0x00,0x02,0xC0,0x00,0x02,0x40,0x00,0x02,0x40,0x00,0x03,0x40,
	0x00,0x01,0x40,0x80,0x01,0x40,0x80,0x00,0xC0,0xC1,0x00,0x00,0x67,0x00,0x00,0x1C,0x00,0x00,0x00,0x00,0x00,0x00,0x00,0x00,0x00,0x00,0x00,0x00,0x00,0x00,0x00,0x00,0x00,0x00,0xff
};

uint8_t model0_1[72] = {
	0x00,0x00,0x00,0x00,0x00,0x00,0x80,0x0F,0x00,0x80,0x78,0x00,0x80,0xC0,0x00,0xC0,0x80,0x00,0x40,0x80,0x01,0x40,0x00,0x01,0x40,0x00,0x01,0x40,0x00,0x01,0x40,0x00,0x01,0x40,0x00,0x01,0x40,
	0x00,0x01,0xC0,0x00,0x01,0x80,0x01,0x01,0x00,0x87,0x01,0x00,0xCC,0x00,0x00,0x78,0x00,0x00,0x00,0x00,0x00,0x00,0x00,0x00,0x00,0x00,0x00,0x00,0x00,0x00,0x00,0x00,0x00,0x00,0x00,
};

uint8_t model0_2[72] = {
	0x00,0x00,0x00,0x00,0x00,0x00,0x00,0x00,0x00,0x00,0x00,0x00,0x00,0x00,0x00,0x00,0x00,0x00,0x00,0x00,0x1F,0x00,0x00,0x31,0x00,0x80,0x21,0x00,0xC0,0x20,0x00,0x40,0x20,0x00,0x60,0x20,0x00,
	0x20,0x20,0x00,0x20,0x20,0x00,0x20,0x20,0x00,0x20,0x30,0x00,0x20,0x18,0x00,0x60,0x0E,0x00,0xC0,0x03,0x00,0x00,0x00,0x00,0x00,0x00,0x00,0x00,0x00,0x00,0x00,0x00,0x00,0x00,0x00,
};

uint8_t model0_3[72] = {
	0x00,0x00,0x00,0x00,0x00,0x00,0x00,0x00,0x00,0x00,0x00,0x00,0x00,0x06,0x00,0x40,0x0F,0x00,0xC0,0x09,0x00,0x40,0x18,0x00,0x40,0x10,0x00,0x40,0x10,0x00,0x40,0x10,0x00,0x40,0x10,0x00,0x40,
	0x10,0x00,0x60,0x10,0x00,0x20,0x10,0x00,0x20,0x10,0x00,0x20,0x18,0x00,0x20,0x0C,0x00,0x20,0x06,0x00,0xA0,0x03,0x00,0xE0,0x00,0x00,0x00,0x00,0x00,0x00,0x00,0x00,0x00,0x00,0x00,
};

uint8_t model1[72] = {
	0x00,0x00,0x00,0x00,0xC0,0x00,0x00,0xE0,0x00,0x00,0x60,0x00,0x00,0x70,0x00,0x00,0x30,0x00,0x00,0x38,0x00,0x00,0x18,0x00,0x00,0x1C,0x00,0x00,0x0C,0x00,0x00,0x0E,0x00,0x00,0x06,0x00,0x00,
	0x07,0x00,0x00,0x03,0x00,0x80,0x03,0x00,0x80,0x01,0x00,0xC0,0x01,0x00,0xC0,0x01,0x00,0xC0,0x00,0x00,0xC0,0x00,0x00,0xC0,0x00,0x00,0x00,0x00,0x00,0x00,0x00,0x00,0x00,0x00,0x00
};

uint8_t model7[72] = {
	0x00,0x00,0x00,0x00,0x00,0x00,0x00,0xFC,0x0F,0x00,0xFF,0x3F,0x00,0x07,0x1C,0x00,0x00,0x1C,0x00,0x00,0x18,0x00,0x00,0x18,0x00,0x00,0x18,0x00,0x00,0x18,0x00,0x00,0x18,0x00,0x00,0x18,0x00,
	0x00,0x18,0x00,0x00,0x18,0x00,0x00,0x18,0x00,0x00,0x18,0x00,0x00,0x18,0x00,0x00,0x18,0x00,0x00,0x10,0x00,0x00,0x00,0x00,0x00,0x00,0x00,0x00,0x00,0x00,0x00,0x00,0x00,0x00,0x00
};


#endif // !_simaple_h_

